2806
3917
3508
3812
3B43
33FA
3691
3A0B
3352
2CED
34A3
3129
3B70
3A77
3911
3AF9
3A6E
31F8
3B24
3851
3A76
3B2B
3517
2F0B
334B
36D5
3A8B
3AE3
1F1E
3816
36AE
331C
2FAC
3567
3B8B
352C
3826
39A0
35D1
3BC6
3BB3
3407
37F5
34D0
348F
28B9
38E0
3805
2A97
3475
3B44
33AA
30A3
37D5
3BE3
33BF
3961
3A18
339B
39D3
35E2
390F
3911
3849
2DC7
3AAF
3522
31F8
2938
38BA
396C
243F
3819
333F
3929
3194
3987
3630
3B7E
3067
3575
2F43
3B66
3B05
3421
3948
3A8A
3871
383D
33BD
2DF5
3B2D
3B34
3911
356D
3596
39CF
3B2D
3B19
3A3D
3923
2D63
312C
3B30
38DA
20B5
2E7F
394F
1D2F
3125
3864
3989
3937
332D
39B3
3398
3535
39F9
3932
3ACB
3943
388C
2DFF
35E2
343E
33CF
3BC9
364A
3B23
390D
3A5C
3805
389D
37E1
323F
39C8
347E
263A
392A
31AB
